000000000000000000000000000000001111111100000000111111100000110000000000000000000000000000000000000000001111111000000000111111010000010111111111000000000000000000000000000000001111111111111111111111110000110111111111111110010000001100000110000010100000111111110010000011100001000011101110000000000000011100000100000010010000000011111111111110010000010111110101000000000000000100000010000001101111011100000000111110000000101011111011000000110000001100000001000001010000100000000010111110001111101111111011000001011111110100000000111001011111011111111111000011110000111000010011111111010000010111111011000000000000011010011111000000011111111000000011111101011110101011110000000010000001111100001010000000001111110100000001111101011110101011110001000001110010000000001001000000111111111000000011111101111110011111110010000001100001110100001000111001001111001111100010000001111110001011110111111101110000001000001110000000000000000010111001000000000000011100000001000000001111111000000001000010111111111100000001111111110000000111111000111110011111101011111111111110011111010000000000000000101111111100000111000001010000000000000000000001100000100011111110111110110000000000000011000001000000001000000000111101110000001000001001000000000000011000101000
000000000000000000000000000000000000000000000000000000000000000000000000000000000000000000000000000000000000000000000000000000000000000000000000000000000000000000000000000000000000000000000000000000000000000000000000000000000000000000000000000000000000000000000000000000000000000000000000111111111111111110100011000001001111110111111111111110011111111100000010000000110000000000000011000000100000101011111111111100111111111111111111000001101111110111111110000000000000101011111101111110001111111111111011000000101111111100000001111110100000001100001000111111000000001111111110000001101111111011111111000000000000011101100011111111111111111111111111111111001111100111111110111111111111110011111110000000000000000000000000111111110000010000000000000000001111111100000000000000010000010000000001000001000000001000000111000001000000010100000010000000100000000011111111111111110000000000000101000000001111110100000000000000000000010101110001000000000000000000000000000000000000000000000000000000000000000000000000000000000000000000000000000000000000000000000000000000000000000000000000000000000000000000000000000000000000000000000000000000000000000000000000000000000000000000000000000000000000000000000000000000000000000000000000000000000000000000110110
111110001111001111111010111101011111010011111101000001100000011100001001000000100000010000000010000001011111111100000011000000001111111000000100000011000000010100000011000010100000011000000010111101111111111011110001000000000000101000000010000100101111001100010010111011100000100111101100000000000000010111000101000001001111011111111001000000011111110100001110000000010000001000000000000001111111110000000010111111111111111111111000000000110000011011111010000000101111100111111000000000001111111100001011111111110000010000000010111111111111111000000110111110010000001100001010111110110000000000000001000000000000011001001011000000000000000000000000000000001111110111111011000000000000000000000000000000000000000011111111000000001111110011111011000000000000000000000000000000000000000000000000000000001111110111111011000000000000000000000000000000101111111100000000111110100000100111111100000000011111110100000000000000000000100101001100111101110000010000000000000001001111110100001100111111001111111100000000000000100000010111111011000000100000000000000100000000001111110011111011111111000000100100001001111111101111111111111110111110100000000011111101000000001111110000000010000000001111111100000000111111000000001000000001000000000000011010111110
111110011111101111111110000000100000000000000010000000010000011100000000000001010000000100001010111101110000001000000011111111101111101100000011111101111111101100000010000000010000000011111110000010100000010011111001000000001111101100000000111111010000000000000011000000000000000011111100000000000000011110011100000001001111110100000111000000000000000000000000000001001111011011111101111111001111110011111110111111110000000000000110000011110000000011110111111111111111111111111011000010010000000000000000000001101111111111111001000000000000000000000011000000000000000011111111111111110000000011111011000000000000011101001010111111000000000011111001000010000000000000000010111111110000000000000000111111110000110100000001000001000000001011110011000000101111101100000010111111000000000111111111000010011111111111111110000000000000000011111101111111010000010011111110000001001111111100000000000001010000001011111111000000000000011000100001000000000000000000000000000000000000000000000000000000000000000000000000000000000000000000000000000000000000000000000000000000000000000000000000000000000000000000000000000000000000000000000000000000000000000000000000000000000000000000000000000000000000000000000000000000000000000000000000111111111111111011100100
000000001111111100000000000000000000001000000000000000010000010100000001000000000000000000000000000000000000001000000000000000010000010000000000000000000000000000000000000000000000001000000001000000010000010100000001000000110000000111111101111111010000000011111000000000000000001111111010111111111111111111101111000000000000011011111001111111000000000000000100111111100000000000000100000011111111100011111001000011011111111111111110111111001111111111111101111111000000000111111110000000100000000011111111000001010000000000000000111111000000001100000000111111011111111111111100000000010000000000000011000000000000011001000001111111110000000000000011000000010000000000000000111111100000011111111000111111001111111000001010000001101111110100000000000001000000001111101110111110100000100000000110000000001111111100000100000000101111111011111010000000000000001111111110000000000000001000000010000000010000000100000100000000000000010110011100000000001111111100000001000000101111111111111111000000000000000000000001000000001111111000000000000000000000000000000000000000100000000000000001111111111111110011111111000000000000001000000000000000100000000000000001000100010000101100010000000010100000010100001010000011110000111000010000000000000000001000000100
111100001111100000000100000000000000000100000000000000101111100100000100000001111111111111111010000000001111111111111111000010000000001000000000000011000000000011111111000000100000010011110101000000001111111100000001000000110000001111111100111101110000000100000101111111100000011000000001000000000000011000100011000000001111111111111111000000111111111111110111000000100000000100000000000000000000000000000010000000111110110100010000000000001111111000000101000000011111101100000010000000000000000011111110000000111111111000000010111110000001110000000000000000001111110111111100000000101111100111111011000000000000011111011011000000000000000000000000000000000000000000000000000000000000000000000000000000000000000000000000000000000000000000000000000000000000000000000000000000000000000000000000000000000000000000000000000000000000000000000000000000000000000000000000000000000000000000000000000000000000000000000000111111111111111110110011000000010000000000000000000001100000001100000010111111101111111011111111000000010000000100000000000000110000001000000101111111100000000100000000000000000000000000000000000000110000011100000010111111111111111100000000111110001111110111111010000000010000110100000011000010111111110000000001000000000000001001001111
000000110000000011111010000000011111110011111111000001010000000111111110000000110000000000000000111111100000000100000000000000101111101100000010111111100000000000000111111110101111110100010010111111101111011111111111000000000000011011111101000000010000001011111111000000101111110011111111000000000000011001101011000000100000010100000011000001010000010000000010000000010000001000000001000000000000001000000001000000100000000000000001000000000000000100000001111111111111101000000000000000001111110111111110000000000000000000000000000000000000000111111011111111110000100000000110111111101111111000000000000000000000001000010100111111111111011000001001111111101111110000010000111111101111100100000011000000000000000000000001111111010000000000001010111111111111111111111110000000000000001011111100000000011111110111111100000000100000010100000010000000010000001111110011000000010000010111111011000001001111110100000101000000000000011001011010000000001111111111111011111110111111110111111011000000001111100100000010000000100000000100000011000000010000000000000010000000010000001000000000111111111111111100000110000000000000011100000100000000000000101011111110000001100000001111110011000000100000001000000000111111010000010011111100000000000000010101011010
111110110000011100000100111010100000010100000101000001000000000000000010111111110000000000000000000000000000010100000001111111101111110111111110111110110000010100000000111110101111111100000010000000100000011011111111111111110000100011111101000001100000000011111111000000100000010011111101000000000000011100001101111110011111011111111110000000010000100000000001000000100000010100000001111111011111011111111011000000010000010000000010000000100000001100000010111111110001000111111111000000011111111000000000111111001111101111111110000000110001000000011001000001110000000111111001111101101110110011110000000000000000011001100010000010001111111011110101000000110000000000000011000010001111011000000000111111110000000111111110000000000000001100000100111111110000000111111100111110001111111000000100000000011111111000000001111101110000010100001010000000000000000100000000111111111111111000000000000000100000010111111001000000000000011000111001000000100000011000000001000010001111111000001000111111011111110000000000111110111111101011111111111111011111111111111110111111010000010000000000111111101111100100000010111110010000001111111110000011000000000000000010000000000000010000000001000000110000000000000000000000000000001011111000000000000000010111010010
111111010000000000000001001100100000011011001101000110010000000111100100111111011111111100000000001100000000011011001111000110010000001111100010111111000000000000000001001100000000011111001111000110000000000111100011000011011110000011110001000111011110101110110011111010100000011011101010000000000000010000001011111111010000000100000000000000100000000111111010111111010000001000000010111111100000000111111111000000000000100011111100111111110000001000000000000000100000010000000011000000010000100011111100111111110000100000000000111111000000110111111001111110101111110000000111000010001111110100000000000000000000001110110001000000000000000000000000000000001111111000000010000000000000000100000000000000100000001000000000000001001110110111111111000000110000001000000001000000000000000000000100111111000000010100000000111111110000000111111110000000001111111011111110000001000000000100000111111111010000000011111001000000000000011010011111000000100000100000000000000001001111111111111001111111000000001011111101000000010000001100001010111111101111011000000110111110010000000111111111000000010000011111110000000010001110011100000011000000010000010100001011000000000000001011110111000010000000000000000000111111100000010000000100000000000000101110010100
000000100000001111111001000000000000000011111111111110010000011100000011111110000000010111110100111111010000000000001001000001110000001100000000111111000000000011111100000010001111101100000011000000000000001111111100111111101111111000000000111111011111111000000011000000000000011000000000000000000000011010100110000000001111110111111110111111101111110111111111111111110000011111111111000000010000000000000000000000110001000100000000111111000000011011111111000000001111110000000000111111101111101000000000000000000000010100000000000101110000000011111101000101100000111111111010111010101111010000000100000000000000001101111010111111110000001011111111000000110000000000000001000000011111111100000001000000110000001000000010000010000000011000000010000001000000000000000001111110110000000011111101111110111111000011111010000000010000001011111110000001010001001111111011111101001111010100010110000000101110110011111001000000000000011011100110000000010000001100000001000001000000010000000110000000100000001100000000000000000000000000000000000000000000000100000100000000000000000000000000111111011111101000000000111111001111101011111010111111011111101100000000000001010000001011111111111111110000000000000101111111101111111111111100000000000000011011110100
000000100000011011110110111111000000001100000100000001011111110011110110000000100000110111111100111111101111110111111101111111110000101011111110000010000000000011111011111110110000000100000000000010010000000011110100000001100000001011111110000000000000000111111110000000011111110100000000000000000000011001001011000010011111110000000110111111010000000011111111111111000000010000000001000000100000101011111111111111100000000100000000111110010000000011110011000000101111011100001001000001010000000111111110111111000000000000000001111111110000001100000100111111111111111100000000000000001111110100000000000000000000011110001101111111011111101100000000000000010000000111111110111111001111110111111110000000100000101000001100000001010000110000001011000000000000011100000001111111101111100011110000111111111111010111110100000010001111110011111100111011110000111000001100000010000000000111111010111101111111011100000110000000000000011100000000000000000000000000000000000000000000000000000000000000000000000000000000000000000000000000000000000000000000000000000000000000000000000000000000000000000000000000000000000000000000000000000000000000000000000000000000000000000000000000000000000000000000000000000000000000000000000000000000111111111111111111010010
000000000000000000000000000000000000000000000000000000000000000000000000000000000000000000000000000000000000000000000000000000000000000000000000000000000000000000000000000000000000000000000000000000000000000000000000000000000000000000000000000000000000000000000000000000000000000000000000111111111111111110110111111111000000010100000000000000000000011111111011000000001111100100000000111111001111110111111010000000010000000100000111000000110000000000000000111110111111101111111000000000100000011000000011000000110000101111111111111100010000000000000100000001010000001000001011111101111111011100001101000000000000010110110111000000001111111100000011000001100000000111110110000010101111011100000000000000110000001011111111000001000000001011111010000000111111100011111101111110111111110100000001111111101111110100000011000000100000011100000000000000010000000011111111000000000000000111111110111111110000000000000000000000000000011110111000111111001111001011111011111101011111100011110001111111001111001011110101000001010000110100001010000100010000100000001000000001000001000000000101111111010000000000000000000000000000000000000100111111010000010000000000111101110000001000000101000001000010000000010110000011000000101011110100000000000000000111000101
000000100000001100000000000001000000001000000101000001000000001000000101111110001111110011111111111101101111111011111000000000001111011111111010000001000000011000000000000000010000000000000011000000111111111100000001000000010000011011110111000000100000000000000101000000001111110000000010000000000000010111001011000000000000010111111100000001101111111000000010111110101111111100001000111111101111111011111110111111111111110111111110111111011111101100000000000010000000110100000001000011101111111111111101000000000000011000000001000010100000000100000101000000000001011000000100111110101111101111110001000000000000001110110101111111100000100000000011111110110000001111111110111111111111101111111101000000110000000000000000111110001111101000000001111111110000011100001000111100010000000100000110000001110000001000000010111111101111111000000000000000110000000000000011111111000000010000000000000000101111101000000001000000000000011001101001000010001111100111111101000000110000000011111011000001010000010111111001000011011111110111111011111111010000000000000101111111011111111111111100111110010000100111111111000000110000010011110110000000111111110100000101000001000000000111111100000000111111111100000101111111010000001100000000000000000000011001101000
000000000000001100000000000000100001000000000010000000000000000100000000111111110000001011111110000000000000110100000000111111110000000000000000111111100000000011111101000000000000101100000000111111101111111111111110111111100000000100000000000000110000011011111100111111001111111100000001000000000000000100001010000000000000000000000000000000001111011000000010000000000000000000000000000000010000001000000001000000000000100100000100000000010000000000000010000000000000000000000000111111111111001100000001000000001111111111111110000000101111111100000000111111110000010011111101000000100000000000000001000000000000010110101101000000000000000100000010111110100000000000000101000000000000011011110110111111100000000011111100000000000000000111111000000011011111111000000100111110111111110100000000000000000000000011111011111111100000001000001100000000000000000111111101000000100000000100000000111111110000000000000000000000000000011000011000000000000000001100000000111100110000000000000100000000010000001000000000000001011111111000000001000000000000000111111101000000001111111000000001000001001111011000000000000100111111111000000010000000011111010011111101000000010000001111111100000001000000000000000000000000110000000011111100000000000000011100001101
111111011111101011111011111111000001101100000000111111101111111111111110000000110000100000000011111111111111011000000011000000001111101111111111000000010000000111111101111111000000000000000100111111100000000000000011000001101111111111111100000000000000000100000000111111000000010100000001000000000000100110001000000000001111101000000000000000111111100100000010000000010000001100000001000000010000010000000011000000001111100100000000000000001111110000000010111110111111111111110011000000010000110000000110111111000000000100000011111111000000001100000010000001010000001011111001111111011111101000000011000000000000011110001011111111010000010000000000111111011111011011111111111111111111101011111111000000100000110000000000000001110000000100000101000000110000001100000010000000001111101100000101111111011111111111111001000000011111111000000000111111000000000000000010000001110000001100000100111101110000000000000100000000000000010100111001111111111111100111110110000000011111111000000100000011100000010000000000111110001111110111111100111111110000000000000100111111100000100100000010000000000000001000000111000000110000000111111011000000001111100111111111111111111111111111111010000000110000000111111110000000111111110100001000000000000000011001001000
111111101111010000000000000000000000101100000010000000011111111100000011000000001111101011111100000000111111110011111101000001000000001100000100000000011111110000001100000000101111000100000010111111110000100011111011111110110000010000000011000000010000001111111110000000001111111100000011000000000000100110001110111110010000001100000000000000101111100111111100000000110000100111111100111111011111111100000101111101100000101000000010111111110000000100000010000000001111111100000010000000000000100100000110111111111111010011111111111101000010001011111101110101110001100111110110110110010010011000001011000000000000010110010010000000110000001000000010000000101111111100000011000000011110111000000011000000100000000100000010000000011111111000000010000000001110110000000001111111011111111011111101111111011111100011111110111110011110000111111011111110110000000011111000000001010000011011111111000000000001001111110111000000000000010000000110000010010000000000000000000000110000000000000100111110111111111011110011000001001111110000000010111111010000000000000000000000011111110100001000000001010000000100000001000000000000000011111110111110100000011011110111111111110000001100000000000000001111111011111111000000000000000100000010000000000000011011101000
